#include "model.h"

const unsigned char g_model[] = {
  0x1c, 0x00, 0x00, 0x00, 0x54, 0x46, 0x4c, 0x33, 0x14, 0x00, 0x20, 0x00,
  0x04, 0x00, 0x08, 0x00, 0x0c, 0x00, 0x10, 0x00, 0x14, 0x00, 0x00, 0x00,
  0x18, 0x00, 0x1c, 0x00, 0x14, 0x00, 0x00, 0x00, 0x03, 0x00, 0x00, 0x00,
  0x18, 0x00, 0x00, 0x00, 0x24, 0x00, 0x00, 0x00, 0x38, 0x01, 0x00, 0x00,
  0x24, 0x00, 0x00, 0x00, 0xe0, 0x00, 0x00, 0x00, 0x5c, 0x00, 0x00, 0x00,
  0x03, 0x00, 0x00, 0x00, 0xf8, 0x04, 0x00, 0x00, 0x44, 0x04, 0x00, 0x00,
  0x04, 0x02, 0x00, 0x00, 0x01, 0x00, 0x00, 0x00, 0x38, 0x01, 0x00, 0x00,
  0x0f, 0x00, 0x00, 0x00, 0x10, 0x10, 0x00, 0x00, 0x0c, 0x10, 0x00, 0x00,
  0x44, 0x0f, 0x00, 0x00, 0xb4, 0x0e, 0x00, 0x00, 0x30, 0x0e, 0x00, 0x00,
  0x60, 0x0a, 0x00, 0x00, 0x10, 0x06, 0x00, 0x00, 0x40, 0x05, 0x00, 0x00,
  0xf0, 0x0f, 0x00, 0x00, 0xec, 0x0f, 0x00, 0x00, 0xe8, 0x0f, 0x00, 0x00,
  0xe4, 0x0f, 0x00, 0x00, 0xe0, 0x0f, 0x00, 0x00, 0xdc, 0x0f, 0x00, 0x00,
  0xb8, 0x00, 0x00, 0x00, 0x01, 0x00, 0x00, 0x00, 0x10, 0x00, 0x00, 0x00,
  0x00, 0x00, 0x0a, 0x00, 0x10, 0x00, 0x0c, 0x00, 0x08, 0x00, 0x04, 0x00,
  0x0a, 0x00, 0x00, 0x00, 0x0c, 0x00, 0x00, 0x00, 0x1c, 0x00, 0x00, 0x00,
  0x20, 0x00, 0x00, 0x00, 0x0f, 0x00, 0x00, 0x00, 0x73, 0x65, 0x72, 0x76,
  0x69, 0x6e, 0x67, 0x5f, 0x64, 0x65, 0x66, 0x61, 0x75, 0x6c, 0x74, 0x00,
  0x01, 0x00, 0x00, 0x00, 0x14, 0x00, 0x00, 0x00, 0x01, 0x00, 0x00, 0x00,
  0x28, 0x00, 0x00, 0x00, 0x08, 0x00, 0x0c, 0x00, 0x08, 0x00, 0x04, 0x00,
  0x08, 0x00, 0x00, 0x00, 0x0c, 0x00, 0x00, 0x00, 0x04, 0x00, 0x00, 0x00,
  0x08, 0x00, 0x00, 0x00, 0x64, 0x65, 0x6e, 0x73, 0x65, 0x5f, 0x32, 0x33,
  0x00, 0x00, 0x00, 0x00, 0x62, 0xf1, 0xff, 0xff, 0x04, 0x00, 0x00, 0x00,
  0x07, 0x00, 0x00, 0x00, 0x69, 0x6e, 0x70, 0x75, 0x74, 0x5f, 0x38, 0x00,
  0x01, 0x00, 0x00, 0x00, 0x0c, 0x00, 0x00, 0x00, 0x08, 0x00, 0x0c, 0x00,
  0x04, 0x00, 0x08, 0x00, 0x08, 0x00, 0x00, 0x00, 0x08, 0x00, 0x00, 0x00,
  0x0e, 0x00, 0x00, 0x00, 0x13, 0x00, 0x00, 0x00, 0x6d, 0x69, 0x6e, 0x5f,
  0x72, 0x75, 0x6e, 0x74, 0x69, 0x6d, 0x65, 0x5f, 0x76, 0x65, 0x72, 0x73,
  0x69, 0x6f, 0x6e, 0x00, 0xaa, 0xf1, 0xff, 0xff, 0x04, 0x00, 0x00, 0x00,
  0x10, 0x00, 0x00, 0x00, 0x31, 0x2e, 0x31, 0x34, 0x2e, 0x30, 0x00, 0x00,
  0x00, 0x00, 0x00, 0x00, 0x00, 0x00, 0x00, 0x00, 0x0f, 0x00, 0x00, 0x00,
  0x4d, 0x4c, 0x49, 0x52, 0x20, 0x43, 0x6f, 0x6e, 0x76, 0x65, 0x72, 0x74,
  0x65, 0x64, 0x2e, 0x00, 0x00, 0x00, 0x0e, 0x00, 0x18, 0x00, 0x04, 0x00,
  0x08, 0x00, 0x0c, 0x00, 0x10, 0x00, 0x14, 0x00, 0x0e, 0x00, 0x00, 0x00,
  0x14, 0x00, 0x00, 0x00, 0x48, 0x00, 0x00, 0x00, 0x4c, 0x00, 0x00, 0x00,
  0x50, 0x00, 0x00, 0x00, 0x68, 0x00, 0x00, 0x00, 0x0d, 0x00, 0x00, 0x00,
  0x6c, 0x0e, 0x00, 0x00, 0x20, 0x0e, 0x00, 0x00, 0xb8, 0x0d, 0x00, 0x00,
  0x34, 0x0d, 0x00, 0x00, 0xa4, 0x0c, 0x00, 0x00, 0xd4, 0x08, 0x00, 0x00,
  0x84, 0x04, 0x00, 0x00, 0x88, 0x03, 0x00, 0x00, 0xd4, 0x02, 0x00, 0x00,
  0x28, 0x02, 0x00, 0x00, 0xa0, 0x01, 0x00, 0x00, 0x10, 0x01, 0x00, 0x00,
  0x88, 0x00, 0x00, 0x00, 0x01, 0x00, 0x00, 0x00, 0x00, 0x00, 0x00, 0x00,
  0x01, 0x00, 0x00, 0x00, 0x0c, 0x00, 0x00, 0x00, 0x06, 0x00, 0x00, 0x00,
  0x10, 0x03, 0x00, 0x00, 0x78, 0x02, 0x00, 0x00, 0xcc, 0x01, 0x00, 0x00,
  0x54, 0x01, 0x00, 0x00, 0xb4, 0x00, 0x00, 0x00, 0x1c, 0x00, 0x00, 0x00,
  0x04, 0x00, 0x00, 0x00, 0x6d, 0x61, 0x69, 0x6e, 0x00, 0x00, 0x0e, 0x00,
  0x18, 0x00, 0x08, 0x00, 0x0c, 0x00, 0x10, 0x00, 0x07, 0x00, 0x14, 0x00,
  0x0e, 0x00, 0x00, 0x00, 0x00, 0x00, 0x00, 0x09, 0x02, 0x00, 0x00, 0x00,
  0x1c, 0x00, 0x00, 0x00, 0x10, 0x00, 0x00, 0x00, 0x04, 0x00, 0x00, 0x00,
  0x96, 0xf2, 0xff, 0xff, 0x00, 0x00, 0x80, 0x3f, 0x01, 0x00, 0x00, 0x00,
  0x0c, 0x00, 0x00, 0x00, 0x01, 0x00, 0x00, 0x00, 0x0b, 0x00, 0x00, 0x00,
  0x20, 0xfd, 0xff, 0xff, 0x19, 0x00, 0x00, 0x00, 0x00, 0x00, 0x00, 0x19,
  0x01, 0x00, 0x00, 0x00, 0x60, 0xf2, 0xff, 0xff, 0x14, 0x00, 0x00, 0x00,
  0x0d, 0x00, 0x00, 0x00, 0x24, 0x00, 0x00, 0x00, 0x40, 0x00, 0x00, 0x00,
  0x10, 0x00, 0x00, 0x00, 0x02, 0x00, 0x00, 0x00, 0x01, 0x00, 0x00, 0x00,
  0x02, 0x00, 0x00, 0x00, 0x02, 0x00, 0x00, 0x00, 0xff, 0xff, 0xff, 0xff,
  0x02, 0x00, 0x00, 0x00, 0x19, 0x00, 0x00, 0x00, 0x53, 0x74, 0x61, 0x74,
  0x65, 0x66, 0x75, 0x6c, 0x50, 0x61, 0x72, 0x74, 0x69, 0x74, 0x69, 0x6f,
  0x6e, 0x65, 0x64, 0x43, 0x61, 0x6c, 0x6c, 0x3a, 0x30, 0x00, 0x00, 0x00,
  0x48, 0xf2, 0xff, 0xff, 0xc2, 0xfd, 0xff, 0xff, 0x00, 0x00, 0x00, 0x08,
  0x18, 0x00, 0x00, 0x00, 0x0c, 0x00, 0x00, 0x00, 0x04, 0x00, 0x00, 0x00,
  0x60, 0xf2, 0xff, 0xff, 0x01, 0x00, 0x00, 0x00, 0x0b, 0x00, 0x00, 0x00,
  0x03, 0x00, 0x00, 0x00, 0x0a, 0x00, 0x00, 0x00, 0x06, 0x00, 0x00, 0x00,
  0x01, 0x00, 0x00, 0x00, 0xe4, 0xf2, 0xff, 0xff, 0x14, 0x00, 0x00, 0x00,
  0x0c, 0x00, 0x00, 0x00, 0x24, 0x00, 0x00, 0x00, 0x58, 0x00, 0x00, 0x00,
  0x10, 0x00, 0x00, 0x00, 0x02, 0x00, 0x00, 0x00, 0x01, 0x00, 0x00, 0x00,
  0x02, 0x00, 0x00, 0x00, 0x02, 0x00, 0x00, 0x00, 0xff, 0xff, 0xff, 0xff,
  0x02, 0x00, 0x00, 0x00, 0x30, 0x00, 0x00, 0x00, 0x6d, 0x6f, 0x64, 0x65,
  0x6c, 0x5f, 0x37, 0x2f, 0x64, 0x65, 0x6e, 0x73, 0x65, 0x5f, 0x32, 0x33,
  0x2f, 0x4d, 0x61, 0x74, 0x4d, 0x75, 0x6c, 0x3b, 0x6d, 0x6f, 0x64, 0x65,
  0x6c, 0x5f, 0x37, 0x2f, 0x64, 0x65, 0x6e, 0x73, 0x65, 0x5f, 0x32, 0x33,
  0x2f, 0x42, 0x69, 0x61, 0x73, 0x41, 0x64, 0x64, 0x00, 0x00, 0x00, 0x00,
  0xe4, 0xf2, 0xff, 0xff, 0xee, 0xfe, 0xff, 0xff, 0x01, 0x00, 0x00, 0x00,
  0x10, 0x00, 0x00, 0x00, 0x04, 0x00, 0x00, 0x00, 0x01, 0x00, 0x00, 0x00,
  0x0a, 0x00, 0x00, 0x00, 0x01, 0x00, 0x00, 0x00, 0x09, 0x00, 0x00, 0x00,
  0x70, 0xf3, 0xff, 0xff, 0x14, 0x00, 0x00, 0x00, 0x0b, 0x00, 0x00, 0x00,
  0x24, 0x00, 0x00, 0x00, 0x40, 0x00, 0x00, 0x00, 0x10, 0x00, 0x00, 0x00,
  0x02, 0x00, 0x00, 0x00, 0x01, 0x00, 0x00, 0x00, 0x10, 0x00, 0x00, 0x00,
  0x02, 0x00, 0x00, 0x00, 0xff, 0xff, 0xff, 0xff, 0x10, 0x00, 0x00, 0x00,
  0x18, 0x00, 0x00, 0x00, 0x6d, 0x6f, 0x64, 0x65, 0x6c, 0x5f, 0x37, 0x2f,
  0x64, 0x65, 0x6e, 0x73, 0x65, 0x5f, 0x32, 0x32, 0x2f, 0x53, 0x69, 0x67,
  0x6d, 0x6f, 0x69, 0x64, 0x00, 0x00, 0x00, 0x00, 0x58, 0xf3, 0xff, 0xff,
  0xd2, 0xfe, 0xff, 0xff, 0x00, 0x00, 0x00, 0x08, 0x18, 0x00, 0x00, 0x00,
  0x0c, 0x00, 0x00, 0x00, 0x04, 0x00, 0x00, 0x00, 0x70, 0xf3, 0xff, 0xff,
  0x01, 0x00, 0x00, 0x00, 0x09, 0x00, 0x00, 0x00, 0x03, 0x00, 0x00, 0x00,
  0x08, 0x00, 0x00, 0x00, 0x05, 0x00, 0x00, 0x00, 0x02, 0x00, 0x00, 0x00,
  0xf4, 0xf3, 0xff, 0xff, 0x14, 0x00, 0x00, 0x00, 0x0a, 0x00, 0x00, 0x00,
  0x24, 0x00, 0x00, 0x00, 0x58, 0x00, 0x00, 0x00, 0x10, 0x00, 0x00, 0x00,
  0x02, 0x00, 0x00, 0x00, 0x01, 0x00, 0x00, 0x00, 0x10, 0x00, 0x00, 0x00,
  0x02, 0x00, 0x00, 0x00, 0xff, 0xff, 0xff, 0xff, 0x10, 0x00, 0x00, 0x00,
  0x30, 0x00, 0x00, 0x00, 0x6d, 0x6f, 0x64, 0x65, 0x6c, 0x5f, 0x37, 0x2f,
  0x64, 0x65, 0x6e, 0x73, 0x65, 0x5f, 0x32, 0x32, 0x2f, 0x4d, 0x61, 0x74,
  0x4d, 0x75, 0x6c, 0x3b, 0x6d, 0x6f, 0x64, 0x65, 0x6c, 0x5f, 0x37, 0x2f,
  0x64, 0x65, 0x6e, 0x73, 0x65, 0x5f, 0x32, 0x32, 0x2f, 0x42, 0x69, 0x61,
  0x73, 0x41, 0x64, 0x64, 0x00, 0x00, 0x00, 0x00, 0xc4, 0xf4, 0xff, 0xff,
  0x00, 0x00, 0x0a, 0x00, 0x10, 0x00, 0x04, 0x00, 0x08, 0x00, 0x0c, 0x00,
  0x0a, 0x00, 0x00, 0x00, 0x01, 0x00, 0x00, 0x00, 0x10, 0x00, 0x00, 0x00,
  0x04, 0x00, 0x00, 0x00, 0x01, 0x00, 0x00, 0x00, 0x08, 0x00, 0x00, 0x00,
  0x01, 0x00, 0x00, 0x00, 0x07, 0x00, 0x00, 0x00, 0x5c, 0xff, 0xff, 0xff,
  0x0e, 0x00, 0x00, 0x00, 0x00, 0x00, 0x00, 0x0e, 0x01, 0x00, 0x00, 0x00,
  0x9c, 0xf4, 0xff, 0xff, 0x14, 0x00, 0x00, 0x00, 0x09, 0x00, 0x00, 0x00,
  0x24, 0x00, 0x00, 0x00, 0x40, 0x00, 0x00, 0x00, 0x10, 0x00, 0x00, 0x00,
  0x02, 0x00, 0x00, 0x00, 0x01, 0x00, 0x00, 0x00, 0x10, 0x00, 0x00, 0x00,
  0x02, 0x00, 0x00, 0x00, 0xff, 0xff, 0xff, 0xff, 0x10, 0x00, 0x00, 0x00,
  0x18, 0x00, 0x00, 0x00, 0x6d, 0x6f, 0x64, 0x65, 0x6c, 0x5f, 0x37, 0x2f,
  0x64, 0x65, 0x6e, 0x73, 0x65, 0x5f, 0x32, 0x31, 0x2f, 0x53, 0x69, 0x67,
  0x6d, 0x6f, 0x69, 0x64, 0x00, 0x00, 0x00, 0x00, 0x54, 0xf5, 0xff, 0xff,
  0x00, 0x00, 0x0e, 0x00, 0x14, 0x00, 0x00, 0x00, 0x08, 0x00, 0x0c, 0x00,
  0x07, 0x00, 0x10, 0x00, 0x0e, 0x00, 0x00, 0x00, 0x00, 0x00, 0x00, 0x08,
  0x18, 0x00, 0x00, 0x00, 0x0c, 0x00, 0x00, 0x00, 0x04, 0x00, 0x00, 0x00,
  0xac, 0xf4, 0xff, 0xff, 0x01, 0x00, 0x00, 0x00, 0x07, 0x00, 0x00, 0x00,
  0x03, 0x00, 0x00, 0x00, 0x00, 0x00, 0x00, 0x00, 0x04, 0x00, 0x00, 0x00,
  0x03, 0x00, 0x00, 0x00, 0x0c, 0x00, 0x10, 0x00, 0x0b, 0x00, 0x00, 0x00,
  0x0c, 0x00, 0x04, 0x00, 0x0c, 0x00, 0x00, 0x00, 0x09, 0x00, 0x00, 0x00,
  0x00, 0x00, 0x00, 0x09, 0x01, 0x00, 0x00, 0x00, 0x4c, 0xf5, 0xff, 0xff,
  0x14, 0x00, 0x00, 0x00, 0x08, 0x00, 0x00, 0x00, 0x24, 0x00, 0x00, 0x00,
  0x58, 0x00, 0x00, 0x00, 0x10, 0x00, 0x00, 0x00, 0x02, 0x00, 0x00, 0x00,
  0x01, 0x00, 0x00, 0x00, 0x10, 0x00, 0x00, 0x00, 0x02, 0x00, 0x00, 0x00,
  0xff, 0xff, 0xff, 0xff, 0x10, 0x00, 0x00, 0x00, 0x30, 0x00, 0x00, 0x00,
  0x6d, 0x6f, 0x64, 0x65, 0x6c, 0x5f, 0x37, 0x2f, 0x64, 0x65, 0x6e, 0x73,
  0x65, 0x5f, 0x32, 0x31, 0x2f, 0x4d, 0x61, 0x74, 0x4d, 0x75, 0x6c, 0x3b,
  0x6d, 0x6f, 0x64, 0x65, 0x6c, 0x5f, 0x37, 0x2f, 0x64, 0x65, 0x6e, 0x73,
  0x65, 0x5f, 0x32, 0x31, 0x2f, 0x42, 0x69, 0x61, 0x73, 0x41, 0x64, 0x64,
  0x00, 0x00, 0x00, 0x00, 0x4c, 0xf5, 0xff, 0xff, 0x16, 0xf6, 0xff, 0xff,
  0x04, 0x00, 0x00, 0x00, 0x80, 0x00, 0x00, 0x00, 0xcd, 0xd5, 0xef, 0xbe,
  0xfc, 0x21, 0xd6, 0x3e, 0x82, 0x49, 0x20, 0xbf, 0xae, 0x58, 0x01, 0xbf,
  0x6e, 0xeb, 0x06, 0x3f, 0xae, 0xb0, 0xfe, 0x3e, 0x17, 0x63, 0xdf, 0x3e,
  0x87, 0x3b, 0x0a, 0xbf, 0x37, 0x81, 0xfe, 0x3e, 0x99, 0x0e, 0x0a, 0xbf,
  0x67, 0x0c, 0x0f, 0xbf, 0xc0, 0xe0, 0x00, 0xbf, 0x8e, 0x63, 0x07, 0x3f,
  0x72, 0xba, 0x08, 0xbf, 0xf6, 0x5c, 0x00, 0xbf, 0x99, 0x96, 0x09, 0x3f,
  0xb0, 0x48, 0x12, 0x3f, 0x47, 0x48, 0x0b, 0xbf, 0xc3, 0xe0, 0x01, 0x3f,
  0x21, 0x30, 0xfa, 0x3e, 0xc0, 0x44, 0x09, 0xbf, 0x68, 0x1a, 0x14, 0xbf,
  0xc9, 0xb6, 0x05, 0xbf, 0xbc, 0xf1, 0xf0, 0x3e, 0x16, 0xea, 0x11, 0xbf,
  0x0e, 0x22, 0x06, 0x3f, 0x15, 0x81, 0xf8, 0x3e, 0x38, 0xe4, 0x01, 0x3f,
  0x93, 0x72, 0x09, 0xbf, 0x66, 0x09, 0xf3, 0x3e, 0x75, 0xc8, 0xf8, 0x3e,
  0xc3, 0x66, 0x1b, 0xbf, 0x86, 0xf6, 0xff, 0xff, 0x10, 0x00, 0x00, 0x00,
  0x07, 0x00, 0x00, 0x00, 0x14, 0x00, 0x00, 0x00, 0x2c, 0x00, 0x00, 0x00,
  0x02, 0x00, 0x00, 0x00, 0x02, 0x00, 0x00, 0x00, 0x10, 0x00, 0x00, 0x00,
  0x17, 0x00, 0x00, 0x00, 0x6d, 0x6f, 0x64, 0x65, 0x6c, 0x5f, 0x37, 0x2f,
  0x64, 0x65, 0x6e, 0x73, 0x65, 0x5f, 0x32, 0x33, 0x2f, 0x4d, 0x61, 0x74,
  0x4d, 0x75, 0x6c, 0x00, 0x18, 0xf6, 0xff, 0xff, 0xe2, 0xf6, 0xff, 0xff,
  0x04, 0x00, 0x00, 0x00, 0x00, 0x04, 0x00, 0x00, 0x3b, 0x11, 0x18, 0xbf,
  0x61, 0x2d, 0xf0, 0xbe, 0x66, 0xbb, 0x27, 0xbf, 0xa2, 0xf3, 0x27, 0xbe,
  0x18, 0xe5, 0xff, 0xbe, 0x10, 0x8e, 0xe6, 0xbe, 0x94, 0x0c, 0x1d, 0x3f,
  0xbd, 0xd5, 0x9a, 0xbe, 0xdd, 0xeb, 0xe1, 0xbe, 0xe6, 0xd4, 0xfa, 0x3e,
  0xaa, 0x6f, 0x5b, 0x3e, 0xda, 0x97, 0xcc, 0xbe, 0xee, 0x1b, 0xed, 0x3e,
  0x8c, 0x74, 0x27, 0xbf, 0x28, 0xcb, 0x0d, 0xbf, 0xa0, 0x19, 0x1c, 0xbf,
  0xb1, 0x5d, 0x09, 0x3f, 0xfb, 0x0e, 0x16, 0x3f, 0x58, 0x76, 0x35, 0x3f,
  0xc7, 0x60, 0x0a, 0x3e, 0xe8, 0x0f, 0xf7, 0x3e, 0x04, 0x52, 0xd0, 0x3e,
  0x13, 0xc6, 0xe5, 0xbe, 0x00, 0x32, 0x79, 0x3e, 0x41, 0x8d, 0x0f, 0x3f,
  0x2e, 0xd2, 0x0b, 0xbf, 0x0c, 0x63, 0x67, 0xbe, 0x66, 0xb9, 0xc2, 0x3e,
  0x60, 0x80, 0xf2, 0xbe, 0x8b, 0x64, 0x0e, 0x3f, 0xb2, 0x97, 0x10, 0x3f,
  0xce, 0xdc, 0x20, 0x3f, 0xd0, 0x98, 0x0f, 0xbf, 0x72, 0x3f, 0x10, 0xbf,
  0x05, 0xf9, 0x2b, 0xbf, 0x17, 0xd4, 0x28, 0xbd, 0x6d, 0x52, 0xec, 0xbe,
  0xb7, 0xb9, 0xe8, 0xbe, 0x90, 0x5d, 0x18, 0x3f, 0x62, 0xbd, 0x92, 0xbe,
  0x84, 0xe7, 0x04, 0xbf, 0x38, 0xaa, 0x2c, 0x3f, 0x9b, 0xfc, 0x68, 0x3e,
  0x1e, 0xd8, 0xc2, 0xbe, 0xe9, 0x90, 0x0c, 0x3f, 0xc0, 0xe9, 0x29, 0xbf,
  0xcf, 0xf2, 0x08, 0xbf, 0x42, 0x45, 0x15, 0xbf, 0xbc, 0x6d, 0x15, 0xbf,
  0xad, 0x7d, 0xf9, 0xbe, 0xf1, 0x55, 0x24, 0xbf, 0xff, 0xf2, 0x09, 0xbe,
  0x3a, 0xba, 0x06, 0xbf, 0xe2, 0xae, 0xea, 0xbe, 0x51, 0xb5, 0x10, 0x3f,
  0xfd, 0x68, 0xbe, 0xbe, 0xf5, 0x69, 0x05, 0xbf, 0x74, 0x8a, 0x08, 0x3f,
  0x34, 0x6a, 0x6d, 0x3e, 0x9a, 0x30, 0xd0, 0xbe, 0x0e, 0x08, 0xfa, 0x3e,
  0x5e, 0x3c, 0x1a, 0xbf, 0x9a, 0x60, 0x16, 0xbf, 0xea, 0x77, 0x08, 0xbf,
  0x9c, 0x51, 0x12, 0x3f, 0xf3, 0xe5, 0xf4, 0x3e, 0x98, 0xc9, 0x24, 0x3f,
  0xcb, 0xa5, 0x06, 0x3e, 0x92, 0x52, 0x06, 0x3f, 0x9a, 0xa8, 0xcd, 0x3e,
  0xd1, 0x5e, 0x25, 0xbf, 0xba, 0xc6, 0x83, 0x3e, 0x74, 0x8b, 0x14, 0x3f,
  0xff, 0xfd, 0xf2, 0xbe, 0xd9, 0xa7, 0xab, 0xbe, 0x6c, 0xa7, 0xf0, 0x3e,
  0x45, 0xa5, 0xec, 0xbe, 0x72, 0x41, 0x1c, 0x3f, 0xd7, 0x2d, 0x22, 0x3f,
  0x1e, 0xc6, 0x0c, 0x3f, 0x96, 0xeb, 0x1d, 0x3f, 0x8e, 0x7a, 0x03, 0x3f,
  0x52, 0xf6, 0x20, 0x3f, 0xce, 0x81, 0x13, 0x3d, 0x1f, 0xad, 0xf5, 0x3e,
  0xf8, 0x4b, 0xca, 0x3e, 0x6b, 0x99, 0x19, 0xbf, 0xc9, 0xab, 0x8d, 0x3e,
  0x04, 0x03, 0x00, 0x3f, 0x06, 0xd1, 0x0a, 0xbf, 0x24, 0x65, 0x6e, 0xbe,
  0x67, 0x7f, 0xc8, 0x3e, 0xd9, 0x36, 0x08, 0xbf, 0xda, 0x8e, 0x1a, 0x3f,
  0xd2, 0xd4, 0x05, 0x3f, 0x42, 0x03, 0x17, 0x3f, 0x95, 0xd2, 0x1a, 0x3f,
  0x0c, 0x4b, 0xe7, 0x3e, 0x8f, 0xeb, 0x18, 0x3f, 0x58, 0xbe, 0xad, 0x3d,
  0xb9, 0x42, 0xdc, 0x3e, 0x80, 0x98, 0x00, 0x3f, 0x06, 0x7e, 0x06, 0xbf,
  0x24, 0x2f, 0x9e, 0x3e, 0xcc, 0x45, 0x04, 0x3f, 0x81, 0x11, 0x14, 0xbf,
  0x19, 0xe0, 0x4f, 0xbe, 0x55, 0x1a, 0xca, 0x3e, 0x63, 0x92, 0xd4, 0xbe,
  0x52, 0x18, 0x15, 0x3f, 0x12, 0x79, 0xfe, 0x3e, 0x10, 0xc6, 0x19, 0x3f,
  0xa1, 0xf4, 0x22, 0xbf, 0xdd, 0x78, 0x13, 0xbf, 0x82, 0x37, 0x1b, 0xbf,
  0xe3, 0xa9, 0x12, 0xbe, 0xe5, 0x63, 0x0a, 0xbf, 0x7b, 0x61, 0xfb, 0xbe,
  0xdb, 0x70, 0x09, 0x3f, 0x00, 0xb9, 0x9c, 0xbe, 0xf3, 0x33, 0xfb, 0xbe,
  0x95, 0xb0, 0x2b, 0x3f, 0x50, 0x78, 0x6d, 0x3e, 0x7b, 0xab, 0xd2, 0xbe,
  0x6f, 0x14, 0xda, 0x3e, 0xf7, 0xcb, 0x1b, 0xbf, 0x48, 0x6f, 0x01, 0xbf,
  0xda, 0xd5, 0x15, 0xbf, 0x6f, 0x2c, 0x1f, 0x3f, 0xc0, 0xfb, 0xf4, 0x3e,
  0x57, 0xf7, 0x26, 0x3f, 0x48, 0x23, 0xca, 0x3d, 0x28, 0xc6, 0xfe, 0x3e,
  0xe4, 0x6a, 0xcf, 0x3e, 0xb4, 0x55, 0x12, 0xbf, 0x89, 0xea, 0xc3, 0x3e,
  0x45, 0xc6, 0x11, 0x3f, 0xb8, 0x5e, 0x13, 0xbf, 0x4f, 0x9b, 0x5d, 0xbe,
  0xd0, 0x06, 0xc6, 0x3e, 0xf6, 0xf6, 0xe0, 0xbe, 0x7c, 0xe2, 0x13, 0x3f,
  0x2e, 0xf8, 0x0b, 0x3f, 0x16, 0xa9, 0x06, 0x3f, 0x6d, 0xd3, 0x13, 0xbf,
  0x9a, 0x9a, 0xf0, 0xbe, 0xa0, 0x88, 0x0c, 0xbf, 0x3d, 0x64, 0x3e, 0xbe,
  0x3a, 0x68, 0x0c, 0xbf, 0x2f, 0x46, 0xf8, 0xbe, 0x37, 0x5d, 0x18, 0x3f,
  0xaf, 0x85, 0x78, 0xbe, 0xbd, 0x54, 0xf2, 0xbe, 0xba, 0x65, 0x0a, 0x3f,
  0x9a, 0xfe, 0x4d, 0x3e, 0xea, 0x8f, 0xe8, 0xbe, 0xd3, 0xe3, 0xfe, 0x3e,
  0x47, 0x1b, 0x22, 0xbf, 0x2a, 0x28, 0x07, 0xbf, 0x78, 0x64, 0x05, 0xbf,
  0x13, 0x9f, 0x22, 0xbf, 0x7b, 0x29, 0xeb, 0xbe, 0x65, 0x6b, 0x2e, 0xbf,
  0xbd, 0xaa, 0xf2, 0xbd, 0x5d, 0xdb, 0xf9, 0xbe, 0xdd, 0x21, 0xfa, 0xbe,
  0xb0, 0xde, 0x19, 0x3f, 0xd6, 0xd6, 0x51, 0xbe, 0x1f, 0x0e, 0x11, 0xbf,
  0x15, 0x84, 0x13, 0x3f, 0x3f, 0x8a, 0x83, 0x3e, 0xe9, 0xa8, 0xec, 0xbe,
  0xd5, 0xce, 0x0e, 0x3f, 0x28, 0x96, 0x23, 0xbf, 0x38, 0x5a, 0xf6, 0xbe,
  0xa0, 0xfc, 0x08, 0xbf, 0xdc, 0xe9, 0x16, 0xbf, 0x87, 0xcb, 0x02, 0xbf,
  0x21, 0x64, 0x29, 0xbf, 0x01, 0x76, 0x18, 0xbe, 0xa5, 0xfe, 0xf2, 0xbe,
  0x90, 0xf3, 0xfe, 0xbe, 0x75, 0xfa, 0xfc, 0x3e, 0x79, 0x25, 0x99, 0xbe,
  0x02, 0xa1, 0x0c, 0xbf, 0x72, 0x71, 0x1c, 0x3f, 0x2a, 0xb0, 0x90, 0x3e,
  0x2f, 0x74, 0x04, 0xbf, 0x79, 0x43, 0xd8, 0x3e, 0x49, 0xc4, 0x1f, 0xbf,
  0xb9, 0x15, 0x06, 0xbf, 0xb1, 0x3c, 0x24, 0xbf, 0x23, 0xa9, 0x0d, 0x3f,
  0xdb, 0xce, 0x1d, 0x3f, 0xaa, 0xc5, 0x23, 0x3f, 0x34, 0xf9, 0x94, 0x3d,
  0xf0, 0x3f, 0x03, 0x3f, 0x2b, 0xf7, 0xdb, 0x3e, 0x62, 0xe7, 0x12, 0xbf,
  0x61, 0x65, 0x9e, 0x3e, 0x77, 0x6d, 0x00, 0x3f, 0xa4, 0x98, 0x07, 0xbf,
  0x3e, 0x8b, 0x5c, 0xbe, 0x54, 0x88, 0xee, 0x3e, 0xd0, 0x6e, 0x01, 0xbf,
  0x71, 0x65, 0x04, 0x3f, 0xb0, 0x6f, 0x19, 0x3f, 0xf5, 0x3b, 0x12, 0x3f,
  0xf5, 0x45, 0x11, 0xbf, 0xe6, 0x68, 0xd4, 0xbe, 0x6b, 0x7d, 0x2b, 0xbf,
  0x4f, 0xf3, 0x1a, 0xbe, 0x3f, 0xa2, 0x06, 0xbf, 0x3f, 0x9a, 0xdd, 0xbe,
  0x52, 0x73, 0x20, 0x3f, 0xa2, 0x3c, 0xcb, 0xbe, 0x04, 0xc7, 0xff, 0xbe,
  0x91, 0x5b, 0xfa, 0x3e, 0xa9, 0x04, 0x8a, 0x3e, 0x11, 0x97, 0xe9, 0xbe,
  0x1b, 0x13, 0xf2, 0x3e, 0xe4, 0xb7, 0x27, 0xbf, 0x95, 0xd7, 0x1b, 0xbf,
  0xeb, 0xdc, 0x08, 0xbf, 0x6f, 0x84, 0x12, 0xbf, 0x52, 0xcc, 0xfd, 0xbe,
  0xc5, 0xd4, 0x33, 0xbf, 0x17, 0x3c, 0x88, 0xbd, 0xd5, 0x6f, 0x0f, 0xbf,
  0xac, 0x09, 0xe0, 0xbe, 0x2d, 0x8d, 0x04, 0x3f, 0x97, 0xd9, 0x89, 0xbe,
  0x6b, 0xa9, 0xfb, 0xbe, 0x38, 0x1e, 0x26, 0x3f, 0xe8, 0x98, 0x4d, 0x3e,
  0x09, 0xe3, 0xe6, 0xbe, 0xe2, 0xc2, 0xe6, 0x3e, 0x4f, 0xae, 0x10, 0xbf,
  0xe2, 0x23, 0xf6, 0xbe, 0x53, 0xe8, 0x19, 0xbf, 0x04, 0xd1, 0x0e, 0x3f,
  0x73, 0xb1, 0x08, 0x3f, 0x5e, 0x5b, 0x2c, 0x3f, 0xff, 0x64, 0xde, 0x3d,
  0x51, 0xd9, 0xfe, 0x3e, 0x87, 0xe7, 0xf6, 0x3e, 0xd5, 0x5e, 0x38, 0xbf,
  0x1e, 0x35, 0xaa, 0x3e, 0x64, 0xb7, 0x08, 0x3f, 0x58, 0x26, 0x14, 0xbf,
  0x80, 0x54, 0x58, 0xbe, 0xe5, 0x93, 0xf2, 0x3e, 0x74, 0x38, 0xf9, 0xbe,
  0xe2, 0x3a, 0x1b, 0x3f, 0x9a, 0x66, 0x2f, 0x3f, 0x47, 0xcf, 0x20, 0x3f,
  0xd2, 0xfa, 0xff, 0xff, 0x10, 0x00, 0x00, 0x00, 0x06, 0x00, 0x00, 0x00,
  0x14, 0x00, 0x00, 0x00, 0x2c, 0x00, 0x00, 0x00, 0x02, 0x00, 0x00, 0x00,
  0x10, 0x00, 0x00, 0x00, 0x10, 0x00, 0x00, 0x00, 0x17, 0x00, 0x00, 0x00,
  0x6d, 0x6f, 0x64, 0x65, 0x6c, 0x5f, 0x37, 0x2f, 0x64, 0x65, 0x6e, 0x73,
  0x65, 0x5f, 0x32, 0x32, 0x2f, 0x4d, 0x61, 0x74, 0x4d, 0x75, 0x6c, 0x00,
  0x64, 0xfa, 0xff, 0xff, 0x2e, 0xfb, 0xff, 0xff, 0x04, 0x00, 0x00, 0x00,
  0x80, 0x03, 0x00, 0x00, 0x1e, 0xcf, 0x5b, 0x37, 0x84, 0x93, 0xb3, 0x3f,
  0x3f, 0x37, 0x1c, 0x3d, 0x10, 0xea, 0x4c, 0x3f, 0xb5, 0x0b, 0xf7, 0x3e,
  0x8d, 0xb4, 0x19, 0xbe, 0x50, 0x23, 0xa8, 0xbe, 0xca, 0x53, 0x27, 0x3f,
  0x0e, 0xa2, 0xe4, 0xbe, 0x54, 0x69, 0xce, 0xbe, 0xc9, 0x47, 0x4f, 0x3e,
  0x18, 0xd9, 0xb9, 0xbf, 0xa6, 0x8c, 0x4e, 0xbf, 0xbf, 0xb9, 0x51, 0x3e,
  0x63, 0x3c, 0x1f, 0xbb, 0x10, 0x6f, 0xc5, 0xbe, 0x1f, 0x57, 0x74, 0xbd,
  0xb7, 0x81, 0x67, 0x3e, 0xd1, 0x12, 0x2e, 0x3f, 0x31, 0xfb, 0xb2, 0x3d,
  0x32, 0x59, 0x6f, 0xbd, 0xf7, 0xaf, 0x89, 0x3e, 0x14, 0xda, 0x8e, 0xbf,
  0x07, 0xf4, 0x18, 0xbe, 0x60, 0x4c, 0x4d, 0x3f, 0x01, 0x29, 0xc4, 0xbe,
  0xc6, 0x45, 0x6b, 0x3e, 0x64, 0x00, 0x27, 0xbc, 0xa6, 0x36, 0x78, 0xbe,
  0x16, 0x9e, 0x00, 0xbf, 0xee, 0xe5, 0xd0, 0xbd, 0x1b, 0x0f, 0x95, 0x3e,
  0xbf, 0x92, 0x87, 0x3e, 0xc5, 0xfa, 0x23, 0x3e, 0xfd, 0x36, 0xa1, 0x3e,
  0xf6, 0xe6, 0x39, 0x3f, 0x50, 0xda, 0x97, 0xbf, 0xef, 0x54, 0xaa, 0xbd,
  0x71, 0x2a, 0x9c, 0x3f, 0x8c, 0x56, 0x40, 0xbe, 0xe4, 0x96, 0xbf, 0x3e,
  0x1f, 0x7a, 0xb2, 0x3c, 0xb0, 0x95, 0xdd, 0xb4, 0xf6, 0x3d, 0x6d, 0xbe,
  0xac, 0xbd, 0x19, 0xbd, 0xb4, 0x47, 0xed, 0x3e, 0x8e, 0xfd, 0xe1, 0x3e,
  0x9d, 0x6c, 0x8d, 0xbd, 0xde, 0x56, 0x8d, 0xbe, 0x0c, 0x8a, 0xe9, 0x3e,
  0xd6, 0x3c, 0x47, 0xbf, 0xa9, 0x29, 0xbb, 0xbd, 0x46, 0x99, 0xf9, 0xbd,
  0x3c, 0x75, 0xd7, 0xbe, 0x70, 0xfa, 0x80, 0xbe, 0x52, 0x1a, 0x59, 0x3d,
  0xdb, 0xec, 0xcf, 0x36, 0x7a, 0x3d, 0x97, 0x3f, 0x7b, 0x7f, 0x82, 0x3d,
  0xfa, 0x0a, 0x55, 0x3f, 0x6f, 0xc0, 0x03, 0x3f, 0xdf, 0x84, 0x23, 0xbe,
  0x52, 0x83, 0xec, 0xbe, 0x9c, 0xb5, 0x02, 0x3f, 0x5a, 0xdb, 0xa3, 0xbe,
  0xdc, 0xed, 0x0e, 0xbf, 0xb3, 0x1b, 0xef, 0x3e, 0x12, 0x89, 0xc5, 0xbf,
  0x24, 0x11, 0x5a, 0xbf, 0xec, 0x4c, 0x86, 0x3e, 0xd5, 0xca, 0x6a, 0xbe,
  0x21, 0xba, 0x12, 0xbf, 0xeb, 0x90, 0x94, 0xbd, 0x4b, 0x95, 0x39, 0x3e,
  0x3f, 0x42, 0x68, 0x3e, 0xd0, 0x82, 0xe9, 0x3d, 0x04, 0xbc, 0xaa, 0x3e,
  0x83, 0x1b, 0x12, 0x3f, 0x62, 0x4d, 0x9c, 0xbf, 0x28, 0x17, 0x87, 0xbd,
  0x67, 0x6a, 0x9c, 0x3f, 0x6e, 0x14, 0x24, 0xbe, 0xf5, 0x92, 0x8d, 0x3e,
  0xb2, 0xc9, 0x59, 0x3d, 0xb6, 0x4b, 0xe7, 0x37, 0x76, 0xe4, 0xa9, 0xbf,
  0x98, 0xda, 0x71, 0xbd, 0x0e, 0x8c, 0x3c, 0xbf, 0xf5, 0xfb, 0x0a, 0xbf,
  0x51, 0xb1, 0x8b, 0x3d, 0x95, 0x65, 0x08, 0x3f, 0x16, 0x91, 0xe5, 0xbe,
  0xbc, 0x1c, 0x82, 0xbd, 0x93, 0xd3, 0x14, 0x3f, 0x9b, 0x7f, 0xdd, 0xbe,
  0x4f, 0xaf, 0xca, 0x3f, 0xf1, 0x25, 0x37, 0x3f, 0xb3, 0x0c, 0x82, 0xbe,
  0x49, 0x1a, 0xd3, 0xbc, 0x23, 0x6b, 0xee, 0xbe, 0x6d, 0xc6, 0xc7, 0xbd,
  0x2a, 0xe2, 0x86, 0x3e, 0xf8, 0xe0, 0xd3, 0x3e, 0x68, 0x36, 0x12, 0x3e,
  0xa6, 0xa5, 0x3a, 0x3e, 0xb0, 0xa5, 0x93, 0x3e, 0xa7, 0xa4, 0x89, 0xbf,
  0x3f, 0x93, 0x6c, 0xbe, 0xda, 0x6e, 0x6c, 0x3f, 0xd1, 0x8a, 0x63, 0xbe,
  0x53, 0x3b, 0xab, 0x3d, 0xa5, 0xa1, 0x0b, 0x3c, 0xd7, 0x2d, 0x38, 0x37,
  0xe6, 0xe3, 0x9e, 0x3f, 0x4e, 0x51, 0x7c, 0x3d, 0x9e, 0xd8, 0x47, 0x3f,
  0x4b, 0xa0, 0xe6, 0x3e, 0x7b, 0xe4, 0x35, 0xbe, 0xcd, 0xe8, 0xe9, 0xbe,
  0xaa, 0x30, 0x19, 0x3f, 0x16, 0xcb, 0x00, 0xbf, 0x48, 0x43, 0x02, 0xbf,
  0x35, 0xb9, 0x0e, 0x3e, 0x78, 0x11, 0xb8, 0xbf, 0x3f, 0xaf, 0x4f, 0xbf,
  0x19, 0x66, 0x76, 0x3e, 0x9a, 0x93, 0x79, 0xb7, 0x56, 0xfb, 0xa2, 0xbf,
  0x8c, 0x08, 0x4a, 0xbd, 0xdf, 0xa5, 0x51, 0xbf, 0x82, 0xa1, 0xfa, 0xbe,
  0x70, 0xb9, 0x2a, 0x3e, 0x09, 0xa2, 0xdb, 0x3e, 0xe2, 0x3d, 0x28, 0xbf,
  0x26, 0x17, 0xa7, 0x3e, 0x9d, 0x2b, 0x16, 0x3f, 0x15, 0x1a, 0xd4, 0xbd,
  0xd9, 0xfe, 0xc0, 0x3f, 0xe6, 0xcc, 0x47, 0x3f, 0x40, 0x06, 0x7a, 0xbe,
  0x85, 0x5b, 0x80, 0x3e, 0xaf, 0x46, 0xf0, 0x3e, 0xfe, 0xe8, 0xd4, 0x3d,
  0x49, 0x41, 0x97, 0xbe, 0x45, 0x74, 0x58, 0xbe, 0x46, 0x80, 0x24, 0xbe,
  0x5f, 0x16, 0xad, 0xbe, 0x42, 0xdc, 0x39, 0xbf, 0x58, 0x93, 0x8f, 0x3f,
  0x03, 0xf5, 0x2a, 0x3e, 0x49, 0x0c, 0x98, 0xbf, 0x1d, 0x4a, 0xd9, 0x3d,
  0x5c, 0x52, 0x8a, 0xbe, 0x48, 0xb1, 0xd6, 0xbd, 0xf4, 0x67, 0x88, 0xb7,
  0x0e, 0x28, 0x8a, 0x3f, 0x30, 0xdc, 0x50, 0x3c, 0x8b, 0x95, 0x2a, 0x3f,
  0x1c, 0xe0, 0xf0, 0x3e, 0x73, 0xf3, 0x94, 0xbb, 0xf0, 0x41, 0xc6, 0xbe,
  0xef, 0x84, 0xae, 0x3e, 0xfc, 0x10, 0xf3, 0xbe, 0x74, 0xb1, 0x0e, 0xbf,
  0xdf, 0xca, 0xa7, 0x3e, 0x52, 0xe1, 0xab, 0xbf, 0x92, 0x59, 0x15, 0xbf,
  0xb9, 0x10, 0x79, 0x3e, 0x10, 0x2a, 0xd4, 0x37, 0x5b, 0x67, 0x8e, 0xbf,
  0xef, 0xc3, 0x26, 0xbd, 0x02, 0xb2, 0x1c, 0xbf, 0xe4, 0xd3, 0xde, 0xbe,
  0xdb, 0xe8, 0x32, 0x3d, 0x05, 0x46, 0x00, 0x3f, 0xdf, 0x9c, 0x97, 0xbe,
  0x09, 0xc8, 0x9c, 0x3e, 0x0f, 0xc9, 0x08, 0x3f, 0x2c, 0x14, 0xdf, 0xbe,
  0x58, 0x4b, 0xc5, 0x3f, 0x3b, 0x84, 0x30, 0x3f, 0x00, 0xa3, 0x66, 0xbe,
  0xf9, 0x8c, 0x57, 0x37, 0x49, 0xae, 0xae, 0x3f, 0x87, 0xf0, 0x5e, 0x3d,
  0x71, 0xd0, 0x3f, 0x3f, 0x2e, 0x25, 0x06, 0x3f, 0xcb, 0x53, 0x31, 0xbe,
  0x53, 0xd5, 0xe7, 0xbe, 0x2f, 0x53, 0x29, 0x3f, 0x0b, 0x42, 0xea, 0xbe,
  0x5a, 0x9a, 0x1c, 0xbf, 0x65, 0xdb, 0x34, 0x3e, 0xb7, 0x28, 0xc5, 0xbf,
  0xfd, 0x8d, 0x65, 0xbf, 0x45, 0xed, 0x99, 0x3e, 0xee, 0x2c, 0x38, 0x37,
  0xe7, 0x68, 0xa1, 0x3f, 0x93, 0x6b, 0x4e, 0x3d, 0x28, 0xba, 0x54, 0x3f,
  0xdc, 0xf2, 0x06, 0x3f, 0xbb, 0x15, 0x22, 0xbe, 0x3a, 0xe4, 0x06, 0xbf,
  0x98, 0x4e, 0x1e, 0x3f, 0x20, 0xc2, 0xb2, 0xbe, 0x9a, 0x48, 0x0e, 0xbf,
  0xa4, 0xf0, 0x84, 0x3e, 0x03, 0x4b, 0xd2, 0xbf, 0x2f, 0x37, 0x54, 0xbf,
  0x8d, 0x4d, 0x80, 0x3e, 0xd9, 0x63, 0x73, 0x37, 0x82, 0xec, 0xa8, 0x3f,
  0x93, 0x90, 0x4a, 0x3d, 0xbd, 0x24, 0x41, 0x3f, 0x7c, 0xab, 0x14, 0x3f,
  0x72, 0xf3, 0x2a, 0xbe, 0xb9, 0xd7, 0xfb, 0xbe, 0x73, 0xec, 0x28, 0x3f,
  0x82, 0x18, 0xb2, 0xbe, 0xd1, 0x71, 0xef, 0xbe, 0xb8, 0xc5, 0x0d, 0x3e,
  0xf4, 0xe3, 0xc4, 0xbf, 0x48, 0x34, 0x54, 0xbf, 0x6f, 0xf6, 0x79, 0x3e,
  0x9e, 0xfe, 0xff, 0xff, 0x10, 0x00, 0x00, 0x00, 0x05, 0x00, 0x00, 0x00,
  0x14, 0x00, 0x00, 0x00, 0x2c, 0x00, 0x00, 0x00, 0x02, 0x00, 0x00, 0x00,
  0x10, 0x00, 0x00, 0x00, 0x0e, 0x00, 0x00, 0x00, 0x17, 0x00, 0x00, 0x00,
  0x6d, 0x6f, 0x64, 0x65, 0x6c, 0x5f, 0x37, 0x2f, 0x64, 0x65, 0x6e, 0x73,
  0x65, 0x5f, 0x32, 0x31, 0x2f, 0x4d, 0x61, 0x74, 0x4d, 0x75, 0x6c, 0x00,
  0x30, 0xfe, 0xff, 0xff, 0xfa, 0xfe, 0xff, 0xff, 0x04, 0x00, 0x00, 0x00,
  0x40, 0x00, 0x00, 0x00, 0x32, 0x01, 0xb3, 0x3d, 0xf2, 0x31, 0xeb, 0xbe,
  0x71, 0x3b, 0xf0, 0xbe, 0x56, 0x91, 0x00, 0xbe, 0x14, 0x24, 0x25, 0xbe,
  0x0b, 0x4e, 0x04, 0xbf, 0x3e, 0x56, 0xfd, 0x3d, 0x96, 0xa7, 0xb2, 0xbe,
  0xf6, 0x88, 0x03, 0xbe, 0x0c, 0x03, 0x6c, 0x3d, 0xf6, 0xdf, 0xef, 0x3e,
  0x01, 0xec, 0x1e, 0xbe, 0x79, 0x13, 0x4a, 0x3e, 0x35, 0x45, 0x01, 0xbd,
  0x6c, 0x08, 0xad, 0xbd, 0xca, 0xf5, 0x05, 0xbd, 0x2a, 0xff, 0xff, 0xff,
  0x10, 0x00, 0x00, 0x00, 0x04, 0x00, 0x00, 0x00, 0x10, 0x00, 0x00, 0x00,
  0x20, 0x00, 0x00, 0x00, 0x01, 0x00, 0x00, 0x00, 0x10, 0x00, 0x00, 0x00,
  0x0d, 0x00, 0x00, 0x00, 0x64, 0x65, 0x6e, 0x73, 0x65, 0x5f, 0x32, 0x31,
  0x2f, 0x62, 0x69, 0x61, 0x73, 0x00, 0x00, 0x00, 0xb0, 0xfe, 0xff, 0xff,
  0x7a, 0xff, 0xff, 0xff, 0x04, 0x00, 0x00, 0x00, 0x40, 0x00, 0x00, 0x00,
  0x65, 0x77, 0x57, 0x3e, 0x88, 0x23, 0x5e, 0xbe, 0xbe, 0xa4, 0x9f, 0x3d,
  0x14, 0x09, 0x4a, 0x3e, 0x49, 0x15, 0x4d, 0xbe, 0xc2, 0x72, 0x07, 0xbe,
  0xd8, 0x52, 0x40, 0xbe, 0x5c, 0xde, 0x4b, 0x3e, 0x5a, 0x32, 0x4a, 0xbe,
  0xaa, 0xff, 0x3c, 0x3e, 0x66, 0xe4, 0xfc, 0x3d, 0x85, 0x2a, 0x7a, 0x3e,
  0xef, 0xc5, 0x43, 0xbe, 0xcd, 0x33, 0x58, 0x3e, 0x40, 0x15, 0x50, 0x3e,
  0x30, 0xa4, 0x81, 0xbe, 0xaa, 0xff, 0xff, 0xff, 0x10, 0x00, 0x00, 0x00,
  0x03, 0x00, 0x00, 0x00, 0x10, 0x00, 0x00, 0x00, 0x24, 0x00, 0x00, 0x00,
  0x01, 0x00, 0x00, 0x00, 0x10, 0x00, 0x00, 0x00, 0x0d, 0x00, 0x00, 0x00,
  0x64, 0x65, 0x6e, 0x73, 0x65, 0x5f, 0x32, 0x32, 0x2f, 0x62, 0x69, 0x61,
  0x73, 0x00, 0x00, 0x00, 0x04, 0x00, 0x06, 0x00, 0x04, 0x00, 0x00, 0x00,
  0x00, 0x00, 0x06, 0x00, 0x08, 0x00, 0x04, 0x00, 0x06, 0x00, 0x00, 0x00,
  0x04, 0x00, 0x00, 0x00, 0x08, 0x00, 0x00, 0x00, 0x17, 0xdf, 0x6b, 0x3d,
  0x73, 0xff, 0x08, 0xbd, 0x00, 0x00, 0x0e, 0x00, 0x14, 0x00, 0x04, 0x00,
  0x00, 0x00, 0x08, 0x00, 0x0c, 0x00, 0x10, 0x00, 0x0e, 0x00, 0x00, 0x00,
  0x10, 0x00, 0x00, 0x00, 0x02, 0x00, 0x00, 0x00, 0x10, 0x00, 0x00, 0x00,
  0x20, 0x00, 0x00, 0x00, 0x01, 0x00, 0x00, 0x00, 0x02, 0x00, 0x00, 0x00,
  0x0d, 0x00, 0x00, 0x00, 0x64, 0x65, 0x6e, 0x73, 0x65, 0x5f, 0x32, 0x33,
  0x2f, 0x62, 0x69, 0x61, 0x73, 0x00, 0x00, 0x00, 0x94, 0xff, 0xff, 0xff,
  0x14, 0x00, 0x18, 0x00, 0x04, 0x00, 0x00, 0x00, 0x08, 0x00, 0x0c, 0x00,
  0x10, 0x00, 0x00, 0x00, 0x00, 0x00, 0x14, 0x00, 0x14, 0x00, 0x00, 0x00,
  0x14, 0x00, 0x00, 0x00, 0x01, 0x00, 0x00, 0x00, 0x24, 0x00, 0x00, 0x00,
  0x40, 0x00, 0x00, 0x00, 0x10, 0x00, 0x00, 0x00, 0x02, 0x00, 0x00, 0x00,
  0x01, 0x00, 0x00, 0x00, 0x0e, 0x00, 0x00, 0x00, 0x02, 0x00, 0x00, 0x00,
  0xff, 0xff, 0xff, 0xff, 0x0e, 0x00, 0x00, 0x00, 0x19, 0x00, 0x00, 0x00,
  0x73, 0x65, 0x72, 0x76, 0x69, 0x6e, 0x67, 0x5f, 0x64, 0x65, 0x66, 0x61,
  0x75, 0x6c, 0x74, 0x5f, 0x69, 0x6e, 0x70, 0x75, 0x74, 0x5f, 0x38, 0x3a,
  0x30, 0x00, 0x00, 0x00, 0xfc, 0xff, 0xff, 0xff, 0x04, 0x00, 0x04, 0x00,
  0x04, 0x00, 0x00, 0x00
};

const unsigned int g_model_len = 4204;
